const unsigned char branch_3_uint8_tflite[] PROGMEM = {
  0x1c, 0x00, 0x00, 0x00, 0x54, 0x46, 0x4c, 0x33, 0x14, 0x00, 0x20, 0x00,
  0x1c, 0x00, 0x18, 0x00, 0x14, 0x00, 0x10, 0x00, 0x0c, 0x00, 0x00, 0x00,
  0x08, 0x00, 0x04, 0x00, 0x14, 0x00, 0x00, 0x00, 0x1c, 0x00, 0x00, 0x00,
  0x8c, 0x00, 0x00, 0x00, 0xe4, 0x00, 0x00, 0x00, 0x94, 0x06, 0x00, 0x00,
  0xa4, 0x06, 0x00, 0x00, 0x38, 0x0b, 0x00, 0x00, 0x03, 0x00, 0x00, 0x00,
  0x01, 0x00, 0x00, 0x00, 0x10, 0x00, 0x00, 0x00, 0x00, 0x00, 0x0a, 0x00,
  0x10, 0x00, 0x0c, 0x00, 0x08, 0x00, 0x04, 0x00, 0x0a, 0x00, 0x00, 0x00,
  0x0c, 0x00, 0x00, 0x00, 0x1c, 0x00, 0x00, 0x00, 0x38, 0x00, 0x00, 0x00,
  0x0f, 0x00, 0x00, 0x00, 0x73, 0x65, 0x72, 0x76, 0x69, 0x6e, 0x67, 0x5f,
  0x64, 0x65, 0x66, 0x61, 0x75, 0x6c, 0x74, 0x00, 0x01, 0x00, 0x00, 0x00,
  0x04, 0x00, 0x00, 0x00, 0x9c, 0xff, 0xff, 0xff, 0x06, 0x00, 0x00, 0x00,
  0x04, 0x00, 0x00, 0x00, 0x06, 0x00, 0x00, 0x00, 0x65, 0x78, 0x69, 0x74,
  0x5f, 0x33, 0x00, 0x00, 0x01, 0x00, 0x00, 0x00, 0x04, 0x00, 0x00, 0x00,
  0x42, 0xf9, 0xff, 0xff, 0x04, 0x00, 0x00, 0x00, 0x06, 0x00, 0x00, 0x00,
  0x61, 0x72, 0x67, 0x73, 0x5f, 0x30, 0x00, 0x00, 0x02, 0x00, 0x00, 0x00,
  0x34, 0x00, 0x00, 0x00, 0x04, 0x00, 0x00, 0x00, 0xdc, 0xff, 0xff, 0xff,
  0x09, 0x00, 0x00, 0x00, 0x04, 0x00, 0x00, 0x00, 0x13, 0x00, 0x00, 0x00,
  0x43, 0x4f, 0x4e, 0x56, 0x45, 0x52, 0x53, 0x49, 0x4f, 0x4e, 0x5f, 0x4d,
  0x45, 0x54, 0x41, 0x44, 0x41, 0x54, 0x41, 0x00, 0x08, 0x00, 0x0c, 0x00,
  0x08, 0x00, 0x04, 0x00, 0x08, 0x00, 0x00, 0x00, 0x08, 0x00, 0x00, 0x00,
  0x04, 0x00, 0x00, 0x00, 0x13, 0x00, 0x00, 0x00, 0x6d, 0x69, 0x6e, 0x5f,
  0x72, 0x75, 0x6e, 0x74, 0x69, 0x6d, 0x65, 0x5f, 0x76, 0x65, 0x72, 0x73,
  0x69, 0x6f, 0x6e, 0x00, 0x0a, 0x00, 0x00, 0x00, 0xac, 0x05, 0x00, 0x00,
  0xa4, 0x05, 0x00, 0x00, 0xe4, 0x00, 0x00, 0x00, 0xac, 0x00, 0x00, 0x00,
  0xa4, 0x00, 0x00, 0x00, 0x9c, 0x00, 0x00, 0x00, 0x94, 0x00, 0x00, 0x00,
  0x8c, 0x00, 0x00, 0x00, 0x6c, 0x00, 0x00, 0x00, 0x04, 0x00, 0x00, 0x00,
  0xde, 0xf9, 0xff, 0xff, 0x04, 0x00, 0x00, 0x00, 0x58, 0x00, 0x00, 0x00,
  0x0c, 0x00, 0x00, 0x00, 0x08, 0x00, 0x0e, 0x00, 0x08, 0x00, 0x04, 0x00,
  0x08, 0x00, 0x00, 0x00, 0x10, 0x00, 0x00, 0x00, 0x28, 0x00, 0x00, 0x00,
  0x00, 0x00, 0x06, 0x00, 0x08, 0x00, 0x04, 0x00, 0x06, 0x00, 0x00, 0x00,
  0x04, 0x00, 0x00, 0x00, 0x01, 0x00, 0x00, 0x00, 0xeb, 0x03, 0x00, 0x00,
  0x00, 0x00, 0x0a, 0x00, 0x10, 0x00, 0x0c, 0x00, 0x08, 0x00, 0x04, 0x00,
  0x0a, 0x00, 0x00, 0x00, 0x02, 0x00, 0x00, 0x00, 0x02, 0x00, 0x00, 0x00,
  0x04, 0x00, 0x00, 0x00, 0x05, 0x00, 0x00, 0x00, 0x32, 0x2e, 0x39, 0x2e,
  0x32, 0x00, 0x00, 0x00, 0x42, 0xfa, 0xff, 0xff, 0x04, 0x00, 0x00, 0x00,
  0x10, 0x00, 0x00, 0x00, 0x31, 0x2e, 0x31, 0x34, 0x2e, 0x30, 0x00, 0x00,
  0x00, 0x00, 0x00, 0x00, 0x00, 0x00, 0x00, 0x00, 0x18, 0xfa, 0xff, 0xff,
  0x1c, 0xfa, 0xff, 0xff, 0x20, 0xfa, 0xff, 0xff, 0x24, 0xfa, 0xff, 0xff,
  0x6e, 0xfa, 0xff, 0xff, 0x04, 0x00, 0x00, 0x00, 0x28, 0x00, 0x00, 0x00,
  0x7f, 0xfd, 0xff, 0xff, 0xcd, 0xfd, 0xff, 0xff, 0xe4, 0xff, 0xff, 0xff,
  0x8b, 0x00, 0x00, 0x00, 0xbf, 0xfe, 0xff, 0xff, 0xea, 0x01, 0x00, 0x00,
  0x89, 0xfe, 0xff, 0xff, 0x39, 0xfe, 0xff, 0xff, 0x74, 0x03, 0x00, 0x00,
  0x22, 0x01, 0x00, 0x00, 0xa2, 0xfa, 0xff, 0xff, 0x04, 0x00, 0x00, 0x00,
  0xb0, 0x04, 0x00, 0x00, 0x0c, 0xec, 0x12, 0xa4, 0x09, 0xd3, 0x37, 0xec,
  0xf7, 0x29, 0x28, 0xf8, 0xcc, 0xb4, 0x16, 0xb1, 0x2a, 0xd3, 0xf1, 0x2d,
  0x17, 0x08, 0x31, 0xe2, 0xe5, 0x0b, 0x0f, 0xb5, 0xcb, 0xfb, 0x9a, 0xbf,
  0xf4, 0xe2, 0x17, 0xf3, 0xe8, 0xbe, 0x27, 0x16, 0x0b, 0xd6, 0x14, 0xe8,
  0x36, 0xf8, 0x95, 0x32, 0x38, 0xe8, 0x00, 0xbf, 0xf8, 0xc3, 0x05, 0x37,
  0x02, 0xe9, 0x36, 0x1c, 0x40, 0x05, 0xf4, 0xda, 0x14, 0xbc, 0xf5, 0x1a,
  0x0b, 0x18, 0x00, 0xcb, 0x28, 0x02, 0xcc, 0xf0, 0x0e, 0xeb, 0x14, 0xd8,
  0xf1, 0x13, 0x3a, 0xda, 0x14, 0xfb, 0xe1, 0xe7, 0x0d, 0x09, 0x29, 0xc8,
  0xd4, 0xf1, 0x0d, 0x03, 0xa8, 0xd2, 0x1a, 0xed, 0xd1, 0x1b, 0xf8, 0xf4,
  0xea, 0xdb, 0x2f, 0xfd, 0xdb, 0x2c, 0x16, 0xb3, 0xfa, 0xbd, 0xfb, 0x16,
  0xcb, 0xca, 0xdd, 0xad, 0xcc, 0x28, 0xc8, 0x35, 0xdd, 0x0b, 0x25, 0xe0,
  0x14, 0x08, 0xe7, 0xe7, 0xc9, 0x27, 0x0f, 0x13, 0xcd, 0x32, 0xf3, 0xbe,
  0xfc, 0xd5, 0xfc, 0xdd, 0x0f, 0x22, 0xe3, 0x24, 0x35, 0x20, 0x1c, 0x1f,
  0x18, 0xc1, 0xe0, 0x15, 0xf7, 0x12, 0xf9, 0xfe, 0x22, 0x07, 0xcd, 0xc6,
  0xeb, 0xea, 0x18, 0x1e, 0x22, 0xda, 0xca, 0x30, 0x24, 0xc4, 0x05, 0x23,
  0xbd, 0x11, 0xb1, 0xea, 0xfc, 0x0b, 0x05, 0x0a, 0x0d, 0x1c, 0x20, 0xf3,
  0x12, 0x42, 0xd6, 0xf7, 0x03, 0x24, 0xfe, 0xd3, 0x27, 0x0a, 0xf9, 0x09,
  0x0c, 0x15, 0x2f, 0xe9, 0xdd, 0x0d, 0x0c, 0xa9, 0xea, 0xde, 0xdf, 0xe5,
  0xc9, 0xf4, 0xfb, 0xf8, 0x18, 0x02, 0xdd, 0xfc, 0x2a, 0xe2, 0xca, 0xef,
  0xee, 0xd2, 0xe1, 0x07, 0x23, 0xce, 0x1a, 0xfc, 0xee, 0x05, 0x0e, 0x06,
  0xd5, 0xe9, 0xf7, 0x0e, 0x0c, 0xd7, 0xff, 0xd6, 0xaf, 0xfb, 0xec, 0x07,
  0x10, 0x43, 0xcd, 0x05, 0xe9, 0x27, 0x1a, 0x21, 0xbd, 0x0a, 0x00, 0xdf,
  0x0b, 0x21, 0x16, 0x16, 0xf5, 0x42, 0x10, 0x00, 0xd3, 0x37, 0xcf, 0x10,
  0x29, 0xb2, 0x0f, 0x16, 0x17, 0x24, 0xe9, 0x08, 0x0d, 0x2a, 0xff, 0xfa,
  0x3f, 0xfa, 0xea, 0x0e, 0xea, 0xf5, 0xdf, 0x42, 0x19, 0x10, 0x0c, 0xc2,
  0xf2, 0x20, 0x00, 0xef, 0xf6, 0xf1, 0x06, 0x36, 0x17, 0xc0, 0xf9, 0xa0,
  0x17, 0xd6, 0xda, 0xdd, 0x22, 0x20, 0xdb, 0xf1, 0xfd, 0x1f, 0xfd, 0x03,
  0xde, 0x04, 0xfc, 0x1d, 0x1d, 0x29, 0xfc, 0x0c, 0xf0, 0x10, 0xda, 0xce,
  0xe6, 0xf2, 0xf0, 0xf2, 0xfe, 0x01, 0x04, 0xe3, 0x97, 0x0d, 0x1d, 0x9a,
  0xe0, 0x18, 0xd2, 0xe4, 0x2d, 0x10, 0xe4, 0x12, 0xf4, 0x07, 0x35, 0x19,
  0xee, 0x2d, 0x32, 0xe8, 0x0d, 0xd5, 0xe9, 0x07, 0xfb, 0xe9, 0xcd, 0xb2,
  0x08, 0xf6, 0xe6, 0x01, 0x1a, 0x26, 0x05, 0x48, 0xee, 0xfd, 0x33, 0xfd,
  0xfe, 0x0f, 0xe5, 0x0a, 0xf2, 0xde, 0x2e, 0xbe, 0xe2, 0x10, 0x1f, 0xdb,
  0x2d, 0x17, 0x13, 0xc8, 0xfa, 0xcc, 0xd7, 0x09, 0xcf, 0xd3, 0x16, 0xbc,
  0xdf, 0xf8, 0x21, 0x22, 0x2f, 0xdc, 0xd1, 0xd2, 0xef, 0x07, 0x2b, 0x17,
  0x08, 0x30, 0xec, 0xc4, 0x09, 0xd3, 0x03, 0xec, 0x1e, 0x18, 0xea, 0xb4,
  0xac, 0x31, 0x20, 0x19, 0xf6, 0xf6, 0xb3, 0x1a, 0x12, 0x1d, 0xf5, 0xfd,
  0x04, 0xfa, 0xe4, 0x0c, 0x22, 0x16, 0x27, 0xbc, 0x16, 0xc9, 0xf7, 0xf3,
  0xfd, 0x07, 0xe9, 0x11, 0x30, 0x0a, 0x0c, 0x13, 0x1e, 0xeb, 0xce, 0xab,
  0xec, 0x0b, 0xaf, 0xf9, 0xd6, 0xdf, 0xdc, 0x3b, 0xfd, 0xfa, 0x2b, 0x0e,
  0xe7, 0x22, 0xd6, 0x25, 0xe1, 0xc9, 0xda, 0x4c, 0x2f, 0x34, 0x0b, 0x22,
  0x1d, 0xe0, 0xfe, 0xf1, 0x26, 0x04, 0xf5, 0xea, 0xdb, 0xc9, 0xc2, 0xc7,
  0x05, 0x23, 0x00, 0xdf, 0x08, 0xc7, 0x0f, 0xf4, 0xfe, 0xd7, 0x04, 0xd8,
  0x0b, 0x27, 0xfd, 0x31, 0xf7, 0xde, 0x0c, 0xe0, 0x00, 0x35, 0xe4, 0x61,
  0xfe, 0x13, 0xfa, 0x07, 0xef, 0xea, 0x28, 0xd7, 0x09, 0x16, 0xfa, 0xc4,
  0x12, 0xcd, 0x81, 0x05, 0xcd, 0x1e, 0xe3, 0xf1, 0x14, 0xe6, 0x2d, 0x10,
  0x0a, 0xb0, 0x00, 0x03, 0xc1, 0x1d, 0xf0, 0xe6, 0x04, 0xf6, 0x01, 0x16,
  0xd2, 0x3c, 0xfe, 0x0a, 0xc8, 0x29, 0xf2, 0x4c, 0xea, 0x21, 0x0e, 0x2e,
  0x49, 0xf3, 0x23, 0x0c, 0xff, 0x05, 0xe3, 0x0e, 0x1a, 0x0b, 0xfd, 0x28,
  0x12, 0x04, 0xd1, 0xdb, 0xcf, 0x0f, 0xbe, 0xe3, 0xf5, 0xeb, 0x00, 0xfe,
  0x11, 0x04, 0x27, 0x1f, 0x17, 0x1e, 0xf2, 0xf0, 0xe5, 0xd0, 0xfa, 0xe5,
  0x14, 0xbb, 0x28, 0x11, 0xef, 0xfc, 0x1c, 0x12, 0x48, 0xff, 0x1a, 0x1c,
  0x18, 0xd4, 0xbf, 0xfe, 0xfe, 0xcf, 0x10, 0xec, 0x34, 0xd2, 0x04, 0x04,
  0xc0, 0x3d, 0xd0, 0xbf, 0x0e, 0xfc, 0x2c, 0xf0, 0xe0, 0xef, 0x04, 0xc3,
  0xdc, 0xf5, 0x47, 0x10, 0xe6, 0x09, 0x13, 0xca, 0xf2, 0x11, 0x0a, 0xd3,
  0xf5, 0xf8, 0x25, 0xdc, 0x09, 0xb4, 0xe1, 0xe5, 0x1c, 0x16, 0xbd, 0xe2,
  0xa1, 0x22, 0x11, 0x16, 0xd5, 0x1f, 0x0d, 0x1f, 0x10, 0x01, 0xd4, 0x28,
  0x44, 0xa5, 0xef, 0xf7, 0xe0, 0xbf, 0x27, 0xfb, 0x06, 0xc6, 0x21, 0xfd,
  0xef, 0xff, 0x25, 0x0b, 0x11, 0x30, 0x0a, 0x04, 0x05, 0xdd, 0x15, 0x24,
  0x13, 0xfe, 0x21, 0x13, 0x03, 0xfd, 0x0a, 0x29, 0x05, 0x1b, 0xa0, 0x0d,
  0x1a, 0x99, 0x20, 0xd9, 0xe4, 0x27, 0x16, 0x1c, 0x11, 0x16, 0xef, 0x47,
  0xfc, 0x01, 0x30, 0xea, 0x2d, 0xac, 0xdd, 0xc5, 0x26, 0xf8, 0xf4, 0x22,
  0xeb, 0x15, 0xf5, 0xdd, 0x0f, 0x25, 0x29, 0xf1, 0x0d, 0x28, 0xe0, 0x09,
  0xac, 0xf7, 0x05, 0xab, 0x0f, 0xf7, 0x20, 0xcf, 0xf4, 0xd7, 0x14, 0xfa,
  0xfc, 0xea, 0xe3, 0xd3, 0x09, 0x0b, 0xe0, 0x08, 0xf4, 0xeb, 0xe2, 0xd1,
  0xd7, 0xbd, 0x43, 0xfb, 0x1e, 0xd1, 0xed, 0xe5, 0xbc, 0x04, 0xe3, 0xbf,
  0xfe, 0x4f, 0xef, 0xfd, 0xc6, 0xf9, 0xbb, 0x09, 0xce, 0xbf, 0xa5, 0x12,
  0x54, 0xd8, 0x21, 0xe3, 0xe3, 0xe0, 0xfb, 0x2f, 0xf2, 0x14, 0x28, 0xf7,
  0x03, 0xf2, 0xec, 0xf4, 0x0d, 0xe0, 0xfc, 0x07, 0xcf, 0x2e, 0x2f, 0x26,
  0xe0, 0xf6, 0x51, 0x0f, 0x1f, 0x38, 0x4c, 0xfc, 0xeb, 0xae, 0xdb, 0xef,
  0x07, 0xe5, 0x1e, 0xca, 0x04, 0x05, 0x04, 0xf9, 0xf9, 0xd3, 0xe5, 0xca,
  0x12, 0xec, 0xf3, 0xe5, 0x19, 0x12, 0xe3, 0x01, 0xb5, 0x2d, 0x30, 0xf3,
  0xec, 0xed, 0x5a, 0xfc, 0xf0, 0x08, 0xcf, 0x05, 0xc3, 0xfa, 0xfa, 0x14,
  0x1a, 0x07, 0xf2, 0x38, 0xf2, 0xf4, 0xde, 0xf9, 0x2c, 0x32, 0xe2, 0x10,
  0x2d, 0x03, 0xa3, 0x12, 0xf2, 0xea, 0x0b, 0x1a, 0x28, 0xfd, 0xee, 0x36,
  0x17, 0xf7, 0x01, 0xfa, 0xda, 0x0f, 0x17, 0x4f, 0x18, 0x05, 0xe1, 0xf4,
  0x0e, 0xbe, 0x0a, 0xff, 0x06, 0x34, 0x37, 0xf4, 0x17, 0x0a, 0x44, 0x1c,
  0xae, 0x10, 0xac, 0x14, 0x17, 0x05, 0xf8, 0xf0, 0xf1, 0xcb, 0xdc, 0xcb,
  0xf8, 0xff, 0x26, 0x0c, 0xfc, 0x1a, 0x14, 0xff, 0xcf, 0xe9, 0xb8, 0xcb,
  0x15, 0x08, 0xd0, 0x0b, 0xee, 0xbb, 0x98, 0xe7, 0xf8, 0x30, 0xe9, 0x17,
  0x29, 0x17, 0xf3, 0xfa, 0xf2, 0xf6, 0x1d, 0xe3, 0xde, 0x03, 0xe6, 0xed,
  0x11, 0x00, 0x16, 0xf2, 0xe7, 0x05, 0xf0, 0xff, 0x0f, 0xfb, 0xde, 0xfc,
  0x04, 0x1a, 0x1c, 0x1d, 0x16, 0x1f, 0xb5, 0xf1, 0xfb, 0x20, 0xfd, 0x26,
  0xe5, 0xd0, 0x2b, 0xed, 0x06, 0x28, 0x1d, 0x13, 0x03, 0xd2, 0x2c, 0xc7,
  0xee, 0xe5, 0xfe, 0xbb, 0xf2, 0x0e, 0x1d, 0x2d, 0xaa, 0x1f, 0x0e, 0x1f,
  0x30, 0xf5, 0xd9, 0x1b, 0xea, 0xe4, 0x0e, 0xf5, 0xf3, 0x1d, 0xb8, 0x03,
  0x2e, 0xf8, 0xca, 0xec, 0xdc, 0xdc, 0x03, 0x21, 0xad, 0x04, 0x01, 0xdf,
  0x13, 0xf2, 0x0d, 0x34, 0x02, 0x27, 0x14, 0xc5, 0xfc, 0xbb, 0x12, 0x1a,
  0xdc, 0x0a, 0xcc, 0xf1, 0x08, 0x11, 0x25, 0xf5, 0x1b, 0xeb, 0x09, 0x02,
  0x12, 0x14, 0x13, 0x19, 0x22, 0xa7, 0xcb, 0x1f, 0x14, 0xf6, 0x06, 0x1a,
  0x00, 0x28, 0x0f, 0x11, 0x1b, 0xfa, 0x38, 0xde, 0x3d, 0xf5, 0xfa, 0x28,
  0xe7, 0xcd, 0xf7, 0xee, 0x16, 0x1c, 0xf3, 0xef, 0x0c, 0x05, 0x02, 0x32,
  0x1b, 0x01, 0xe0, 0x1d, 0xe1, 0x9d, 0xef, 0xb1, 0xcd, 0xa2, 0x0d, 0xc4,
  0xef, 0x21, 0xfe, 0x24, 0x01, 0xbe, 0x16, 0x07, 0xec, 0xd3, 0x16, 0x3f,
  0xe2, 0xea, 0xc7, 0x0a, 0xc2, 0x17, 0xf8, 0xb9, 0xfd, 0x17, 0xe7, 0x05,
  0x1a, 0xf7, 0x0c, 0x0d, 0x12, 0xea, 0x11, 0xdb, 0x22, 0x2f, 0x1e, 0x28,
  0x1f, 0xd0, 0x0b, 0x21, 0x27, 0xa3, 0x13, 0xdf, 0x09, 0x00, 0x44, 0x9d,
  0xd8, 0x02, 0xbe, 0xc3, 0xf7, 0x08, 0xca, 0x21, 0xe3, 0x4c, 0x00, 0x3d,
  0x17, 0xe6, 0xe9, 0x07, 0xcc, 0xe9, 0xe2, 0x13, 0x0e, 0xc7, 0x04, 0x1d,
  0xfd, 0xe7, 0x31, 0x08, 0xda, 0x30, 0xfa, 0xf1, 0x08, 0x3f, 0xfc, 0xfd,
  0xf4, 0xe1, 0xf6, 0x1c, 0x18, 0xff, 0xff, 0xff, 0x1c, 0xff, 0xff, 0xff,
  0x0f, 0x00, 0x00, 0x00, 0x4d, 0x4c, 0x49, 0x52, 0x20, 0x43, 0x6f, 0x6e,
  0x76, 0x65, 0x72, 0x74, 0x65, 0x64, 0x2e, 0x00, 0x01, 0x00, 0x00, 0x00,
  0x14, 0x00, 0x00, 0x00, 0x00, 0x00, 0x0e, 0x00, 0x18, 0x00, 0x14, 0x00,
  0x10, 0x00, 0x0c, 0x00, 0x08, 0x00, 0x04, 0x00, 0x0e, 0x00, 0x00, 0x00,
  0x14, 0x00, 0x00, 0x00, 0x1c, 0x00, 0x00, 0x00, 0xf0, 0x00, 0x00, 0x00,
  0xf4, 0x00, 0x00, 0x00, 0xf8, 0x00, 0x00, 0x00, 0x04, 0x00, 0x00, 0x00,
  0x6d, 0x61, 0x69, 0x6e, 0x00, 0x00, 0x00, 0x00, 0x04, 0x00, 0x00, 0x00,
  0xb8, 0x00, 0x00, 0x00, 0x70, 0x00, 0x00, 0x00, 0x24, 0x00, 0x00, 0x00,
  0x04, 0x00, 0x00, 0x00, 0x62, 0xff, 0xff, 0xff, 0x08, 0x00, 0x00, 0x00,
  0x0c, 0x00, 0x00, 0x00, 0x01, 0x00, 0x00, 0x00, 0x06, 0x00, 0x00, 0x00,
  0x01, 0x00, 0x00, 0x00, 0x05, 0x00, 0x00, 0x00, 0xc6, 0xff, 0xff, 0xff,
  0x1c, 0x00, 0x00, 0x00, 0x00, 0x00, 0x00, 0x09, 0x1c, 0x00, 0x00, 0x00,
  0x20, 0x00, 0x00, 0x00, 0x02, 0x00, 0x00, 0x00, 0x00, 0x00, 0x06, 0x00,
  0x08, 0x00, 0x04, 0x00, 0x06, 0x00, 0x00, 0x00, 0x00, 0x00, 0x80, 0x3f,
  0x01, 0x00, 0x00, 0x00, 0x05, 0x00, 0x00, 0x00, 0x01, 0x00, 0x00, 0x00,
  0x04, 0x00, 0x00, 0x00, 0x00, 0x00, 0x0e, 0x00, 0x18, 0x00, 0x14, 0x00,
  0x10, 0x00, 0x0c, 0x00, 0x0b, 0x00, 0x04, 0x00, 0x0e, 0x00, 0x00, 0x00,
  0x18, 0x00, 0x00, 0x00, 0x00, 0x00, 0x00, 0x08, 0x14, 0x00, 0x00, 0x00,
  0x18, 0x00, 0x00, 0x00, 0x01, 0x00, 0x00, 0x00, 0x04, 0x00, 0x04, 0x00,
  0x04, 0x00, 0x00, 0x00, 0x01, 0x00, 0x00, 0x00, 0x04, 0x00, 0x00, 0x00,
  0x03, 0x00, 0x00, 0x00, 0x03, 0x00, 0x00, 0x00, 0x01, 0x00, 0x00, 0x00,
  0x02, 0x00, 0x00, 0x00, 0x00, 0x00, 0x0a, 0x00, 0x0c, 0x00, 0x00, 0x00,
  0x08, 0x00, 0x04, 0x00, 0x0a, 0x00, 0x00, 0x00, 0x08, 0x00, 0x00, 0x00,
  0x0c, 0x00, 0x00, 0x00, 0x01, 0x00, 0x00, 0x00, 0x03, 0x00, 0x00, 0x00,
  0x01, 0x00, 0x00, 0x00, 0x00, 0x00, 0x00, 0x00, 0x01, 0x00, 0x00, 0x00,
  0x06, 0x00, 0x00, 0x00, 0x01, 0x00, 0x00, 0x00, 0x00, 0x00, 0x00, 0x00,
  0x07, 0x00, 0x00, 0x00, 0xf0, 0x02, 0x00, 0x00, 0x78, 0x02, 0x00, 0x00,
  0xf4, 0x01, 0x00, 0x00, 0x88, 0x01, 0x00, 0x00, 0xfc, 0x00, 0x00, 0x00,
  0x80, 0x00, 0x00, 0x00, 0x04, 0x00, 0x00, 0x00, 0x40, 0xfd, 0xff, 0xff,
  0x18, 0x00, 0x00, 0x00, 0x20, 0x00, 0x00, 0x00, 0x40, 0x00, 0x00, 0x00,
  0x07, 0x00, 0x00, 0x00, 0x00, 0x00, 0x00, 0x03, 0x54, 0x00, 0x00, 0x00,
  0x02, 0x00, 0x00, 0x00, 0xff, 0xff, 0xff, 0xff, 0x0a, 0x00, 0x00, 0x00,
  0x2c, 0xfd, 0xff, 0xff, 0x08, 0x00, 0x00, 0x00, 0x14, 0x00, 0x00, 0x00,
  0x01, 0x00, 0x00, 0x00, 0x00, 0x00, 0x00, 0x00, 0x00, 0x00, 0x00, 0x00,
  0x00, 0x00, 0x00, 0x00, 0x01, 0x00, 0x00, 0x00, 0x00, 0x00, 0x80, 0x3b,
  0x19, 0x00, 0x00, 0x00, 0x53, 0x74, 0x61, 0x74, 0x65, 0x66, 0x75, 0x6c,
  0x50, 0x61, 0x72, 0x74, 0x69, 0x74, 0x69, 0x6f, 0x6e, 0x65, 0x64, 0x43,
  0x61, 0x6c, 0x6c, 0x3a, 0x30, 0x00, 0x00, 0x00, 0x02, 0x00, 0x00, 0x00,
  0x01, 0x00, 0x00, 0x00, 0x0a, 0x00, 0x00, 0x00, 0xb8, 0xfd, 0xff, 0xff,
  0x18, 0x00, 0x00, 0x00, 0x20, 0x00, 0x00, 0x00, 0x40, 0x00, 0x00, 0x00,
  0x06, 0x00, 0x00, 0x00, 0x00, 0x00, 0x00, 0x09, 0x54, 0x00, 0x00, 0x00,
  0x02, 0x00, 0x00, 0x00, 0xff, 0xff, 0xff, 0xff, 0x0a, 0x00, 0x00, 0x00,
  0xa4, 0xfd, 0xff, 0xff, 0x08, 0x00, 0x00, 0x00, 0x14, 0x00, 0x00, 0x00,
  0x01, 0x00, 0x00, 0x00, 0x80, 0xff, 0xff, 0xff, 0xff, 0xff, 0xff, 0xff,
  0x00, 0x00, 0x00, 0x00, 0x01, 0x00, 0x00, 0x00, 0x00, 0x00, 0x80, 0x3b,
  0x1a, 0x00, 0x00, 0x00, 0x53, 0x74, 0x61, 0x74, 0x65, 0x66, 0x75, 0x6c,
  0x50, 0x61, 0x72, 0x74, 0x69, 0x74, 0x69, 0x6f, 0x6e, 0x65, 0x64, 0x43,
  0x61, 0x6c, 0x6c, 0x3a, 0x30, 0x31, 0x00, 0x00, 0x02, 0x00, 0x00, 0x00,
  0x01, 0x00, 0x00, 0x00, 0x0a, 0x00, 0x00, 0x00, 0x30, 0xfe, 0xff, 0xff,
  0x18, 0x00, 0x00, 0x00, 0x20, 0x00, 0x00, 0x00, 0x3c, 0x00, 0x00, 0x00,
  0x05, 0x00, 0x00, 0x00, 0x00, 0x00, 0x00, 0x09, 0x64, 0x00, 0x00, 0x00,
  0x02, 0x00, 0x00, 0x00, 0xff, 0xff, 0xff, 0xff, 0x0a, 0x00, 0x00, 0x00,
  0x1c, 0xfe, 0xff, 0xff, 0x08, 0x00, 0x00, 0x00, 0x10, 0x00, 0x00, 0x00,
  0x01, 0x00, 0x00, 0x00, 0x0f, 0x00, 0x00, 0x00, 0x00, 0x00, 0x00, 0x00,
  0x01, 0x00, 0x00, 0x00, 0x42, 0xa6, 0xb7, 0x3d, 0x2c, 0x00, 0x00, 0x00,
  0x6d, 0x6f, 0x64, 0x65, 0x6c, 0x5f, 0x35, 0x2f, 0x65, 0x78, 0x69, 0x74,
  0x5f, 0x33, 0x2f, 0x4d, 0x61, 0x74, 0x4d, 0x75, 0x6c, 0x3b, 0x6d, 0x6f,
  0x64, 0x65, 0x6c, 0x5f, 0x35, 0x2f, 0x65, 0x78, 0x69, 0x74, 0x5f, 0x33,
  0x2f, 0x42, 0x69, 0x61, 0x73, 0x41, 0x64, 0x64, 0x00, 0x00, 0x00, 0x00,
  0x02, 0x00, 0x00, 0x00, 0x01, 0x00, 0x00, 0x00, 0x0a, 0x00, 0x00, 0x00,
  0xb8, 0xfe, 0xff, 0xff, 0x18, 0x00, 0x00, 0x00, 0x20, 0x00, 0x00, 0x00,
  0x3c, 0x00, 0x00, 0x00, 0x04, 0x00, 0x00, 0x00, 0x00, 0x00, 0x00, 0x09,
  0x44, 0x00, 0x00, 0x00, 0x02, 0x00, 0x00, 0x00, 0xff, 0xff, 0xff, 0xff,
  0x78, 0x00, 0x00, 0x00, 0xa4, 0xfe, 0xff, 0xff, 0x08, 0x00, 0x00, 0x00,
  0x10, 0x00, 0x00, 0x00, 0x01, 0x00, 0x00, 0x00, 0x80, 0xff, 0xff, 0xff,
  0xff, 0xff, 0xff, 0xff, 0x01, 0x00, 0x00, 0x00, 0x09, 0x64, 0xce, 0x3c,
  0x0c, 0x00, 0x00, 0x00, 0x74, 0x66, 0x6c, 0x2e, 0x71, 0x75, 0x61, 0x6e,
  0x74, 0x69, 0x7a, 0x65, 0x00, 0x00, 0x00, 0x00, 0x02, 0x00, 0x00, 0x00,
  0x01, 0x00, 0x00, 0x00, 0x78, 0x00, 0x00, 0x00, 0x8e, 0xff, 0xff, 0xff,
  0x14, 0x00, 0x00, 0x00, 0x34, 0x00, 0x00, 0x00, 0x03, 0x00, 0x00, 0x00,
  0x00, 0x00, 0x00, 0x02, 0x54, 0x00, 0x00, 0x00, 0xfc, 0xfe, 0xff, 0xff,
  0x08, 0x00, 0x00, 0x00, 0x14, 0x00, 0x00, 0x00, 0x01, 0x00, 0x00, 0x00,
  0x00, 0x00, 0x00, 0x00, 0x00, 0x00, 0x00, 0x00, 0x00, 0x00, 0x00, 0x00,
  0x01, 0x00, 0x00, 0x00, 0x0e, 0x8c, 0x3a, 0x39, 0x25, 0x00, 0x00, 0x00,
  0x6d, 0x6f, 0x64, 0x65, 0x6c, 0x5f, 0x35, 0x2f, 0x65, 0x78, 0x69, 0x74,
  0x5f, 0x33, 0x2f, 0x42, 0x69, 0x61, 0x73, 0x41, 0x64, 0x64, 0x2f, 0x52,
  0x65, 0x61, 0x64, 0x56, 0x61, 0x72, 0x69, 0x61, 0x62, 0x6c, 0x65, 0x4f,
  0x70, 0x00, 0x00, 0x00, 0x01, 0x00, 0x00, 0x00, 0x0a, 0x00, 0x00, 0x00,
  0x00, 0x00, 0x0e, 0x00, 0x18, 0x00, 0x14, 0x00, 0x13, 0x00, 0x0c, 0x00,
  0x08, 0x00, 0x04, 0x00, 0x0e, 0x00, 0x00, 0x00, 0x14, 0x00, 0x00, 0x00,
  0x30, 0x00, 0x00, 0x00, 0x02, 0x00, 0x00, 0x00, 0x00, 0x00, 0x00, 0x09,
  0x40, 0x00, 0x00, 0x00, 0x7c, 0xff, 0xff, 0xff, 0x08, 0x00, 0x00, 0x00,
  0x10, 0x00, 0x00, 0x00, 0x01, 0x00, 0x00, 0x00, 0x00, 0x00, 0x00, 0x00,
  0x00, 0x00, 0x00, 0x00, 0x01, 0x00, 0x00, 0x00, 0xf7, 0x62, 0xe7, 0x3b,
  0x15, 0x00, 0x00, 0x00, 0x6d, 0x6f, 0x64, 0x65, 0x6c, 0x5f, 0x35, 0x2f,
  0x65, 0x78, 0x69, 0x74, 0x5f, 0x33, 0x2f, 0x4d, 0x61, 0x74, 0x4d, 0x75,
  0x6c, 0x00, 0x00, 0x00, 0x02, 0x00, 0x00, 0x00, 0x0a, 0x00, 0x00, 0x00,
  0x78, 0x00, 0x00, 0x00, 0x14, 0x00, 0x1c, 0x00, 0x18, 0x00, 0x17, 0x00,
  0x10, 0x00, 0x0c, 0x00, 0x08, 0x00, 0x00, 0x00, 0x00, 0x00, 0x04, 0x00,
  0x14, 0x00, 0x00, 0x00, 0x18, 0x00, 0x00, 0x00, 0x2c, 0x00, 0x00, 0x00,
  0x48, 0x00, 0x00, 0x00, 0x01, 0x00, 0x00, 0x00, 0x00, 0x00, 0x00, 0x03,
  0x5c, 0x00, 0x00, 0x00, 0x02, 0x00, 0x00, 0x00, 0xff, 0xff, 0xff, 0xff,
  0x78, 0x00, 0x00, 0x00, 0x0c, 0x00, 0x0c, 0x00, 0x00, 0x00, 0x00, 0x00,
  0x08, 0x00, 0x04, 0x00, 0x0c, 0x00, 0x00, 0x00, 0x08, 0x00, 0x00, 0x00,
  0x10, 0x00, 0x00, 0x00, 0x01, 0x00, 0x00, 0x00, 0x00, 0x00, 0x00, 0x00,
  0x00, 0x00, 0x00, 0x00, 0x01, 0x00, 0x00, 0x00, 0x09, 0x64, 0xce, 0x3c,
  0x18, 0x00, 0x00, 0x00, 0x73, 0x65, 0x72, 0x76, 0x69, 0x6e, 0x67, 0x5f,
  0x64, 0x65, 0x66, 0x61, 0x75, 0x6c, 0x74, 0x5f, 0x61, 0x72, 0x67, 0x73,
  0x5f, 0x30, 0x3a, 0x30, 0x00, 0x00, 0x00, 0x00, 0x02, 0x00, 0x00, 0x00,
  0x01, 0x00, 0x00, 0x00, 0x78, 0x00, 0x00, 0x00, 0x03, 0x00, 0x00, 0x00,
  0x44, 0x00, 0x00, 0x00, 0x24, 0x00, 0x00, 0x00, 0x04, 0x00, 0x00, 0x00,
  0xf0, 0xff, 0xff, 0xff, 0x19, 0x00, 0x00, 0x00, 0x02, 0x00, 0x00, 0x00,
  0x00, 0x00, 0x00, 0x19, 0x0c, 0x00, 0x10, 0x00, 0x0f, 0x00, 0x00, 0x00,
  0x08, 0x00, 0x04, 0x00, 0x0c, 0x00, 0x00, 0x00, 0x09, 0x00, 0x00, 0x00,
  0x04, 0x00, 0x00, 0x00, 0x00, 0x00, 0x00, 0x09, 0x0c, 0x00, 0x0c, 0x00,
  0x0b, 0x00, 0x00, 0x00, 0x00, 0x00, 0x04, 0x00, 0x0c, 0x00, 0x00, 0x00,
  0x72, 0x00, 0x00, 0x00, 0x00, 0x00, 0x00, 0x72
};
unsigned int branch_3_uint8_tflite_len = 3008;
